1111110101100100
0000000000110101
0000000101000011
1111011011001000
0000110000111010
1111111100101000
0000000111100110
0000011000010100
1110101000011100
1111110010000011
1111110000111001
1111111101101101
0000000110011100
0000000001101001
1111110110000010
1111110110001100
0000101111101100
1111111011111111
0000010011101011
1111111100111000
1111110111001111
0000000000100000
1111100100010100
1111111100001101
1111110100000011
0000001000001001
1110111110110111
1111000111100111
1111110111100110
0000000011000010
0000001001000010
1111110110001000